
#ifdef __has_attribute
#define HAVE_ATTRIBUTE(x) __has_attribute(x)
#else
#define HAVE_ATTRIBUTE(x) 0
#endif
#if HAVE_ATTRIBUTE(aligned) || (defined(__GNUC__) && !defined(__clang__))
#define DATA_ALIGN_ATTRIBUTE __attribute__((aligned(4)))
#else
#define DATA_ALIGN_ATTRIBUTE
#endif

const unsigned char model[] DATA_ALIGN_ATTRIBUTE = {
	0x1c, 0x00, 0x00, 0x00, 0x54, 0x46, 0x4c, 0x33, 0x14, 0x00, 0x20, 0x00, 
	0x1c, 0x00, 0x18, 0x00, 0x14, 0x00, 0x10, 0x00, 0x0c, 0x00, 0x00, 0x00, 
	0x08, 0x00, 0x04, 0x00, 0x14, 0x00, 0x00, 0x00, 0x1c, 0x00, 0x00, 0x00, 
	0x8c, 0x00, 0x00, 0x00, 0xe4, 0x00, 0x00, 0x00, 0xd8, 0x09, 0x00, 0x00, 
	0xe8, 0x09, 0x00, 0x00, 0x30, 0x12, 0x00, 0x00, 0x03, 0x00, 0x00, 0x00, 
	0x01, 0x00, 0x00, 0x00, 0x04, 0x00, 0x00, 0x00, 0x26, 0xf5, 0xff, 0xff, 
	0x0c, 0x00, 0x00, 0x00, 0x1c, 0x00, 0x00, 0x00, 0x3c, 0x00, 0x00, 0x00, 
	0x0f, 0x00, 0x00, 0x00, 0x73, 0x65, 0x72, 0x76, 0x69, 0x6e, 0x67, 0x5f, 
	0x64, 0x65, 0x66, 0x61, 0x75, 0x6c, 0x74, 0x00, 0x01, 0x00, 0x00, 0x00, 
	0x04, 0x00, 0x00, 0x00, 0x90, 0xff, 0xff, 0xff, 0x0d, 0x00, 0x00, 0x00, 
	0x04, 0x00, 0x00, 0x00, 0x08, 0x00, 0x00, 0x00, 0x64, 0x65, 0x6e, 0x73, 
	0x65, 0x5f, 0x31, 0x39, 0x00, 0x00, 0x00, 0x00, 0x01, 0x00, 0x00, 0x00, 
	0x04, 0x00, 0x00, 0x00, 0x0a, 0xf6, 0xff, 0xff, 0x04, 0x00, 0x00, 0x00, 
	0x0e, 0x00, 0x00, 0x00, 0x63, 0x6f, 0x6e, 0x76, 0x32, 0x64, 0x5f, 0x39, 
	0x5f, 0x69, 0x6e, 0x70, 0x75, 0x74, 0x00, 0x00, 0x02, 0x00, 0x00, 0x00, 
	0x34, 0x00, 0x00, 0x00, 0x04, 0x00, 0x00, 0x00, 0xdc, 0xff, 0xff, 0xff, 
	0x10, 0x00, 0x00, 0x00, 0x04, 0x00, 0x00, 0x00, 0x13, 0x00, 0x00, 0x00, 
	0x43, 0x4f, 0x4e, 0x56, 0x45, 0x52, 0x53, 0x49, 0x4f, 0x4e, 0x5f, 0x4d, 
	0x45, 0x54, 0x41, 0x44, 0x41, 0x54, 0x41, 0x00, 0x08, 0x00, 0x0c, 0x00, 
	0x08, 0x00, 0x04, 0x00, 0x08, 0x00, 0x00, 0x00, 0x0f, 0x00, 0x00, 0x00, 
	0x04, 0x00, 0x00, 0x00, 0x13, 0x00, 0x00, 0x00, 0x6d, 0x69, 0x6e, 0x5f, 
	0x72, 0x75, 0x6e, 0x74, 0x69, 0x6d, 0x65, 0x5f, 0x76, 0x65, 0x72, 0x73, 
	0x69, 0x6f, 0x6e, 0x00, 0x11, 0x00, 0x00, 0x00, 0xf0, 0x08, 0x00, 0x00, 
	0xe8, 0x08, 0x00, 0x00, 0xc0, 0x08, 0x00, 0x00, 0x58, 0x06, 0x00, 0x00, 
	0x28, 0x06, 0x00, 0x00, 0xf0, 0x05, 0x00, 0x00, 0xd8, 0x05, 0x00, 0x00, 
	0x08, 0x02, 0x00, 0x00, 0xb8, 0x00, 0x00, 0x00, 0xb0, 0x00, 0x00, 0x00, 
	0xa8, 0x00, 0x00, 0x00, 0xa0, 0x00, 0x00, 0x00, 0x98, 0x00, 0x00, 0x00, 
	0x90, 0x00, 0x00, 0x00, 0x88, 0x00, 0x00, 0x00, 0x68, 0x00, 0x00, 0x00, 
	0x04, 0x00, 0x00, 0x00, 0xca, 0xf6, 0xff, 0xff, 0x04, 0x00, 0x00, 0x00, 
	0x54, 0x00, 0x00, 0x00, 0x0c, 0x00, 0x00, 0x00, 0x08, 0x00, 0x0e, 0x00, 
	0x08, 0x00, 0x04, 0x00, 0x08, 0x00, 0x00, 0x00, 0x10, 0x00, 0x00, 0x00, 
	0x24, 0x00, 0x00, 0x00, 0x00, 0x00, 0x06, 0x00, 0x08, 0x00, 0x04, 0x00, 
	0x06, 0x00, 0x00, 0x00, 0x04, 0x00, 0x00, 0x00, 0x00, 0x00, 0x00, 0x00, 
	0x00, 0x00, 0x0a, 0x00, 0x10, 0x00, 0x0c, 0x00, 0x08, 0x00, 0x04, 0x00, 
	0x0a, 0x00, 0x00, 0x00, 0x02, 0x00, 0x00, 0x00, 0x02, 0x00, 0x00, 0x00, 
	0x04, 0x00, 0x00, 0x00, 0x06, 0x00, 0x00, 0x00, 0x32, 0x2e, 0x31, 0x35, 
	0x2e, 0x30, 0x00, 0x00, 0x2a, 0xf7, 0xff, 0xff, 0x04, 0x00, 0x00, 0x00, 
	0x10, 0x00, 0x00, 0x00, 0x31, 0x2e, 0x35, 0x2e, 0x30, 0x00, 0x00, 0x00, 
	0x00, 0x00, 0x00, 0x00, 0x00, 0x00, 0x00, 0x00, 0xb0, 0xef, 0xff, 0xff, 
	0xb4, 0xef, 0xff, 0xff, 0xb8, 0xef, 0xff, 0xff, 0xbc, 0xef, 0xff, 0xff, 
	0xc0, 0xef, 0xff, 0xff, 0xc4, 0xef, 0xff, 0xff, 0x5e, 0xf7, 0xff, 0xff, 
	0x04, 0x00, 0x00, 0x00, 0x40, 0x01, 0x00, 0x00, 0xb0, 0x22, 0xfe, 0x3d, 
	0xbc, 0x27, 0x90, 0xbd, 0x27, 0x60, 0xd5, 0xbd, 0x2b, 0x81, 0x9c, 0xbe, 
	0xa3, 0x90, 0x4d, 0x3e, 0xd8, 0xe6, 0xcd, 0x3d, 0x39, 0x63, 0x25, 0xbe, 
	0x66, 0xac, 0xc4, 0x3e, 0x38, 0x01, 0xf5, 0xbe, 0x48, 0xfe, 0xdc, 0xbe, 
	0x2f, 0xa1, 0x4f, 0x3d, 0x16, 0x84, 0x10, 0xbf, 0xf3, 0xb7, 0xda, 0xbc, 
	0x6a, 0x2d, 0x83, 0x3e, 0xb4, 0x6e, 0x24, 0xbf, 0x06, 0x02, 0x18, 0x3e, 
	0xba, 0xa4, 0x15, 0x3f, 0x81, 0xf5, 0x98, 0x3e, 0x7d, 0x74, 0xe3, 0xbd, 
	0x1f, 0xf0, 0x9b, 0x3e, 0x66, 0x97, 0x10, 0x3e, 0x08, 0x2d, 0xb8, 0xbd, 
	0x22, 0xc1, 0x44, 0xbd, 0x67, 0x81, 0x71, 0xbe, 0xb7, 0x7a, 0x36, 0xbc, 
	0xe5, 0x0e, 0xa3, 0xbe, 0x8d, 0x81, 0x98, 0xbd, 0x42, 0xad, 0x8c, 0xbe, 
	0xd3, 0x87, 0xb7, 0xbe, 0x74, 0x78, 0xb9, 0xbe, 0x25, 0x1a, 0xcb, 0x3e, 
	0x9f, 0x87, 0xfe, 0x3d, 0x0a, 0x7d, 0xa7, 0x3e, 0xde, 0xa9, 0x90, 0xbe, 
	0xc0, 0xa0, 0x42, 0xbe, 0x94, 0xcf, 0xba, 0x3e, 0xcb, 0xfc, 0x8a, 0x3e, 
	0x24, 0x3e, 0x71, 0xbe, 0xa1, 0x11, 0xe2, 0xbd, 0x3f, 0x85, 0xae, 0xbe, 
	0x3f, 0x2b, 0xff, 0xbe, 0x28, 0x2c, 0x50, 0x3e, 0x33, 0x38, 0xe7, 0x3e, 
	0xc6, 0xf2, 0x9d, 0xbd, 0x96, 0xdb, 0x4d, 0x3d, 0x15, 0xcc, 0xd0, 0x3e, 
	0xc9, 0x5f, 0x80, 0xbe, 0x51, 0x71, 0xb5, 0xbe, 0xf6, 0xd5, 0x0a, 0xbf, 
	0x19, 0xa9, 0x55, 0x3d, 0xa0, 0x6f, 0xb1, 0x3e, 0xda, 0x99, 0x51, 0x3e, 
	0xb1, 0xd7, 0x0a, 0x3d, 0xbf, 0x42, 0xb7, 0x3d, 0xa8, 0x59, 0x00, 0xbf, 
	0x23, 0xac, 0x85, 0xbd, 0x47, 0x43, 0xb2, 0xbe, 0x45, 0x85, 0xb3, 0xbe, 
	0x83, 0x8b, 0xa3, 0xbe, 0x5c, 0x0a, 0x53, 0x3e, 0xe7, 0x9a, 0x14, 0x3f, 
	0x9d, 0x04, 0x6a, 0xbe, 0x85, 0x4e, 0x16, 0xbe, 0x3c, 0xf6, 0x2a, 0xbe, 
	0x15, 0xcd, 0xcd, 0x3e, 0x45, 0xb1, 0x38, 0xbe, 0x2a, 0x68, 0x95, 0x3e, 
	0x2b, 0xf1, 0xb5, 0x3d, 0x45, 0x20, 0x06, 0x3f, 0xb1, 0x7f, 0x3b, 0xbc, 
	0x8e, 0xbd, 0x10, 0x3e, 0x5a, 0x4c, 0x02, 0xbf, 0xa9, 0x85, 0xc9, 0xbe, 
	0xce, 0xc9, 0xc7, 0xbe, 0x2d, 0x2b, 0x36, 0xbd, 0x6c, 0x22, 0x30, 0x3d, 
	0x7a, 0x59, 0xdb, 0xbe, 0x7e, 0x6f, 0xe2, 0x3e, 0x08, 0x94, 0x8f, 0x3e, 
	0x80, 0xfe, 0x91, 0x3e, 0xaa, 0xf8, 0xff, 0xff, 0x04, 0x00, 0x00, 0x00, 
	0xc0, 0x03, 0x00, 0x00, 0x89, 0x7c, 0x03, 0xbd, 0xa3, 0x77, 0x2f, 0xbe, 
	0x42, 0xd7, 0x31, 0xbe, 0x25, 0x70, 0x7a, 0xbe, 0x33, 0xaa, 0xab, 0x3e, 
	0xa6, 0xde, 0xe8, 0xbe, 0x28, 0x39, 0x75, 0xbe, 0xf4, 0x53, 0x9c, 0xbe, 
	0xe3, 0x64, 0xe7, 0x3d, 0x13, 0x2d, 0x88, 0xbe, 0xd0, 0xf1, 0x19, 0x3e, 
	0x26, 0x9c, 0x78, 0xbe, 0x2d, 0x7a, 0xbb, 0xbe, 0x98, 0x42, 0xb4, 0xbe, 
	0x01, 0x50, 0x8e, 0xbe, 0x94, 0xf5, 0xfa, 0xbd, 0x8f, 0x5c, 0xc0, 0xbc, 
	0xdb, 0xac, 0x72, 0xbe, 0x1d, 0x22, 0x00, 0x3f, 0x43, 0x2a, 0xf2, 0x3e, 
	0x95, 0x91, 0xa6, 0xbe, 0xba, 0x35, 0x3e, 0x3d, 0x30, 0x50, 0xcc, 0xbe, 
	0xe6, 0x41, 0xc9, 0x3d, 0xe1, 0x36, 0xa7, 0x3e, 0x86, 0xe9, 0x09, 0xbe, 
	0xe4, 0xf4, 0x9d, 0xbe, 0x25, 0xc8, 0xb8, 0xbe, 0x58, 0xa5, 0x5b, 0x3e, 
	0x0e, 0x0b, 0xc0, 0xbe, 0xad, 0x14, 0xa9, 0xbe, 0x72, 0xfa, 0x51, 0xbc, 
	0xe9, 0x71, 0x2f, 0xbe, 0xf0, 0x4a, 0xee, 0x3c, 0x3b, 0xe7, 0x60, 0xbe, 
	0x86, 0x1f, 0xb5, 0x3e, 0xa3, 0x76, 0xd3, 0xbd, 0x8e, 0x37, 0x9f, 0xbe, 
	0x38, 0x1a, 0xb6, 0x3e, 0xb4, 0x97, 0xe6, 0x3d, 0x66, 0xf1, 0xee, 0xbc, 
	0xb5, 0x3b, 0xca, 0x3d, 0xd6, 0x78, 0x58, 0x3e, 0xc2, 0xc1, 0x09, 0xbe, 
	0x08, 0xb0, 0x56, 0xbc, 0x16, 0x84, 0x9c, 0xbe, 0x9b, 0x1b, 0xc1, 0x3e, 
	0x44, 0x3c, 0xe1, 0xbd, 0xbf, 0x7d, 0x12, 0x3b, 0x19, 0xf8, 0xb6, 0xbc, 
	0x2d, 0x1f, 0x83, 0x3a, 0x54, 0xdb, 0xda, 0xbe, 0x4c, 0xf4, 0x6b, 0x3e, 
	0xfa, 0x3e, 0x53, 0xbc, 0x4d, 0x09, 0xca, 0x3e, 0xaa, 0x58, 0x75, 0x3e, 
	0x7f, 0xc5, 0xc8, 0xbe, 0x1f, 0xf2, 0x76, 0x3e, 0x43, 0x9d, 0xc2, 0xbc, 
	0x63, 0x11, 0xae, 0xbe, 0x1f, 0x8d, 0x89, 0xbe, 0xb9, 0x18, 0xf0, 0x3e, 
	0x36, 0x67, 0x38, 0x3e, 0x9d, 0x86, 0x79, 0x3e, 0x70, 0x85, 0x25, 0xbe, 
	0x10, 0xaf, 0x92, 0xbd, 0x62, 0x62, 0x68, 0xbe, 0xd6, 0x4f, 0xb5, 0x3e, 
	0x2f, 0x9f, 0x54, 0x3e, 0x68, 0x9a, 0x8c, 0x3e, 0xf7, 0xf4, 0x9d, 0xbe, 
	0x7f, 0xd9, 0xa9, 0x3e, 0x34, 0x14, 0xb7, 0xbe, 0xd2, 0xe8, 0x9e, 0xbe, 
	0x34, 0x3c, 0x6f, 0xbe, 0xaa, 0x96, 0xb0, 0x3d, 0xc7, 0xc5, 0xa1, 0x3e, 
	0xb5, 0x11, 0x9f, 0x3e, 0x22, 0x06, 0x98, 0xbe, 0x64, 0xcd, 0xdb, 0x3e, 
	0x17, 0xba, 0x89, 0xbe, 0x84, 0x6f, 0xdb, 0xbc, 0xb5, 0x80, 0x26, 0x3e, 
	0x19, 0xe9, 0x1d, 0xbe, 0xe4, 0x72, 0x94, 0x3d, 0xc6, 0x71, 0xaa, 0xbe, 
	0x0d, 0x08, 0x3e, 0xbe, 0xe2, 0xf4, 0xc7, 0xbe, 0xa4, 0xb1, 0x79, 0xbe, 
	0x03, 0x86, 0xc9, 0x3e, 0x3a, 0x7a, 0xc6, 0xbe, 0x06, 0x63, 0xe6, 0x3d, 
	0x2d, 0x79, 0x14, 0x3e, 0x19, 0x32, 0x04, 0x3e, 0xcd, 0xa6, 0xbf, 0x3e, 
	0xea, 0x93, 0xa4, 0x3e, 0xe2, 0xa5, 0x24, 0x3e, 0x09, 0x72, 0x83, 0xbe, 
	0x66, 0xaa, 0x20, 0xbe, 0xb4, 0x0e, 0x93, 0xbe, 0xc4, 0x73, 0xc4, 0x3d, 
	0x69, 0x0a, 0xa8, 0x3e, 0x0f, 0x56, 0xc6, 0xbd, 0x76, 0x03, 0x50, 0x3e, 
	0x05, 0x0a, 0x13, 0xbe, 0x36, 0xa7, 0x8a, 0xbe, 0x79, 0x74, 0x11, 0xbe, 
	0x63, 0xc2, 0x91, 0xbe, 0x93, 0xb3, 0xb5, 0x3e, 0x15, 0x47, 0x04, 0x3e, 
	0xde, 0xa2, 0x9a, 0x3e, 0x69, 0x1f, 0x68, 0x3e, 0x9e, 0x45, 0xa5, 0xbe, 
	0x6d, 0x96, 0x64, 0x3e, 0x3c, 0xbc, 0x8a, 0x3e, 0x4b, 0x5c, 0x0e, 0xbe, 
	0x3f, 0xff, 0x8a, 0x3e, 0xd6, 0x3e, 0x81, 0xbe, 0x96, 0xa4, 0xae, 0xbe, 
	0x8a, 0x15, 0x16, 0x3e, 0x6e, 0xe9, 0x8b, 0xbc, 0xde, 0xd8, 0xcf, 0xbe, 
	0xba, 0xbc, 0x28, 0xbe, 0x90, 0x45, 0x11, 0x3d, 0x1f, 0x76, 0x9b, 0xbe, 
	0xaa, 0x18, 0xf2, 0x3d, 0x2d, 0xc4, 0x7b, 0xbe, 0x3e, 0x49, 0x52, 0xbe, 
	0x3d, 0xe4, 0xa9, 0xbe, 0xcc, 0x7d, 0x8b, 0x3e, 0x2a, 0x2d, 0x37, 0xbe, 
	0x9e, 0x49, 0x8a, 0xbe, 0x2a, 0x05, 0xad, 0x3e, 0xc3, 0x33, 0xcf, 0xbe, 
	0xac, 0x83, 0x8f, 0x3b, 0xdd, 0xf8, 0x1e, 0xbe, 0x4b, 0xcc, 0xb1, 0x3e, 
	0xa6, 0x29, 0x1a, 0x3e, 0x27, 0xd8, 0x35, 0x3e, 0x14, 0x13, 0xdf, 0x3c, 
	0x8c, 0xec, 0xc1, 0x3e, 0xe3, 0xa6, 0xd0, 0xbe, 0x25, 0xaa, 0xd6, 0xbd, 
	0x66, 0xdc, 0x44, 0xbd, 0x97, 0x40, 0x16, 0xbd, 0xd1, 0xaf, 0x2c, 0xbe, 
	0x36, 0x86, 0xbf, 0x3e, 0xf5, 0x60, 0x28, 0xbd, 0xed, 0xca, 0xec, 0xbd, 
	0xdb, 0xcd, 0x8b, 0xbe, 0xad, 0xef, 0x82, 0x3e, 0xcd, 0x7b, 0xfe, 0x3c, 
	0xb5, 0x7a, 0x8f, 0x3d, 0xd3, 0x1c, 0x3f, 0xbe, 0x5b, 0xe7, 0xae, 0x3e, 
	0x4f, 0x58, 0x8e, 0x3e, 0x6d, 0x66, 0x74, 0xbe, 0x2c, 0x4e, 0x5b, 0x3e, 
	0xf6, 0x61, 0x8e, 0xbd, 0xde, 0x3c, 0x9f, 0xbd, 0x09, 0xa9, 0x5f, 0x3e, 
	0x6b, 0x11, 0xcf, 0xbd, 0xeb, 0x8e, 0x0e, 0xbe, 0x1d, 0x36, 0x9c, 0x3e, 
	0x0c, 0xd3, 0x68, 0x3e, 0x89, 0x31, 0xba, 0xbd, 0x4b, 0x8b, 0xbb, 0x3d, 
	0xbb, 0xfa, 0x5f, 0xbe, 0xae, 0x21, 0x91, 0xbe, 0xe2, 0xf5, 0x08, 0xbe, 
	0x93, 0xb2, 0x6e, 0xbe, 0x4d, 0xc1, 0x2c, 0xbe, 0x3b, 0x74, 0x69, 0xbb, 
	0x57, 0x80, 0x16, 0x3c, 0x7c, 0x7a, 0xd0, 0x3c, 0x7e, 0x11, 0x8d, 0x3e, 
	0x2a, 0x8b, 0xc4, 0xbd, 0x57, 0xb1, 0xb9, 0x3d, 0x31, 0x4e, 0x06, 0xbe, 
	0x46, 0xbe, 0x84, 0x3e, 0x0b, 0xdd, 0xbf, 0xbe, 0xdf, 0x35, 0x89, 0x3e, 
	0xfe, 0xc5, 0x3b, 0xbe, 0x05, 0x52, 0x2f, 0x3d, 0xe8, 0x55, 0x0b, 0xbe, 
	0x2f, 0x24, 0x83, 0xbc, 0x6d, 0x0e, 0x89, 0x3e, 0x68, 0xd4, 0xb5, 0x3e, 
	0xd9, 0x8c, 0xcb, 0xbe, 0x6e, 0x88, 0xf1, 0xbd, 0x02, 0x58, 0x5e, 0xbe, 
	0xf7, 0x40, 0xa2, 0x3d, 0x0d, 0xb2, 0x51, 0x3e, 0xfe, 0x1a, 0x3d, 0x3e, 
	0x7f, 0xa9, 0xa4, 0x3d, 0x8a, 0x28, 0x40, 0xbe, 0xf5, 0x35, 0x8e, 0x3e, 
	0x2a, 0x61, 0x81, 0x3e, 0x47, 0x90, 0xee, 0xbd, 0x69, 0x31, 0xe3, 0x3d, 
	0xfb, 0xa7, 0x8b, 0x3e, 0x13, 0xce, 0x27, 0x3e, 0xcf, 0xe6, 0x36, 0x3e, 
	0x4b, 0x2e, 0xbe, 0x3e, 0x34, 0xa8, 0xaa, 0x3e, 0x59, 0x87, 0x5c, 0x3d, 
	0xc8, 0x84, 0x97, 0xbe, 0xe2, 0xe9, 0x4e, 0xbe, 0xa6, 0xe7, 0x86, 0xbe, 
	0xf3, 0x59, 0x2c, 0xbe, 0x69, 0xa8, 0x93, 0xbd, 0x66, 0x73, 0xe7, 0xbe, 
	0x4f, 0xdc, 0x88, 0x3e, 0x9e, 0xd9, 0x99, 0xbe, 0x5e, 0xd0, 0x0f, 0xbe, 
	0x4b, 0x93, 0xdc, 0x3d, 0x2a, 0x3e, 0x5a, 0x3c, 0x99, 0xc2, 0xc2, 0x3e, 
	0x4d, 0xdc, 0x55, 0x3d, 0x4f, 0x3a, 0xbc, 0xbe, 0xbe, 0x53, 0x5f, 0x3e, 
	0x07, 0x4c, 0x92, 0x3e, 0xe4, 0x34, 0x64, 0x3b, 0x74, 0x10, 0xec, 0x3d, 
	0xeb, 0xb0, 0xe6, 0x3c, 0xd2, 0x70, 0x3f, 0xbe, 0xa4, 0x31, 0x1c, 0x3e, 
	0x48, 0x57, 0x8b, 0x3e, 0x21, 0x4d, 0xe4, 0xbd, 0x1f, 0x07, 0x98, 0xbd, 
	0x77, 0x66, 0x34, 0x3e, 0x99, 0xd5, 0xaa, 0xbe, 0x0c, 0xf4, 0x54, 0xbe, 
	0xc2, 0x71, 0x41, 0x3e, 0xec, 0x50, 0x95, 0x3e, 0x1a, 0xaa, 0x80, 0xbe, 
	0x0e, 0xe5, 0xdb, 0x3e, 0x3c, 0x85, 0x8e, 0xbe, 0xc4, 0xd5, 0x80, 0x3e, 
	0x0e, 0x6d, 0xbe, 0x3e, 0x76, 0xfc, 0xff, 0xff, 0x04, 0x00, 0x00, 0x00, 
	0x08, 0x00, 0x00, 0x00, 0xff, 0xff, 0xff, 0xff, 0x18, 0x00, 0x00, 0x00, 
	0x8a, 0xfc, 0xff, 0xff, 0x04, 0x00, 0x00, 0x00, 0x28, 0x00, 0x00, 0x00, 
	0x51, 0xd3, 0xd6, 0xbc, 0x0e, 0x61, 0x71, 0xbc, 0xb0, 0xf0, 0xc6, 0xbc, 
	0x0c, 0x46, 0x47, 0x3d, 0x9b, 0xea, 0xd3, 0xbd, 0xde, 0xcd, 0xd3, 0xbd, 
	0x39, 0x33, 0x69, 0xbd, 0x23, 0x70, 0xf5, 0xbd, 0x31, 0x95, 0xc4, 0xbd, 
	0x83, 0x96, 0xfb, 0x3b, 0xbe, 0xfc, 0xff, 0xff, 0x04, 0x00, 0x00, 0x00, 
	0x20, 0x00, 0x00, 0x00, 0xd6, 0xa5, 0xdb, 0x3c, 0x04, 0xbc, 0xe0, 0x3a, 
	0x78, 0x9f, 0x5d, 0xbc, 0xaa, 0x62, 0x77, 0xbd, 0x12, 0xe7, 0xc8, 0xbc, 
	0x15, 0xf6, 0x78, 0x3d, 0x17, 0x7e, 0x83, 0xbd, 0x67, 0xdf, 0xa7, 0x3d, 
	0xea, 0xfc, 0xff, 0xff, 0x04, 0x00, 0x00, 0x00, 0x58, 0x02, 0x00, 0x00, 
	0xad, 0x27, 0xd1, 0xbd, 0xf3, 0x92, 0x03, 0x3e, 0x57, 0x60, 0x37, 0xbe, 
	0x5f, 0x74, 0x04, 0xbd, 0x2c, 0xe9, 0xf7, 0xbd, 0x01, 0x77, 0x4e, 0x3d, 
	0xa7, 0xac, 0x06, 0xbe, 0x51, 0x57, 0x81, 0xbd, 0xd5, 0x16, 0x76, 0x3d, 
	0xe5, 0xfa, 0x43, 0xbd, 0x60, 0xe3, 0xc5, 0x3d, 0x52, 0x44, 0x5f, 0x3d, 
	0xb6, 0xdc, 0xbc, 0x3d, 0xd1, 0x63, 0x82, 0xbd, 0x33, 0x9d, 0xef, 0xbd, 
	0xd3, 0xaa, 0x05, 0xbe, 0xd4, 0x21, 0x98, 0xbd, 0x84, 0xc4, 0x97, 0x3c, 
	0xb8, 0xe2, 0x15, 0x3e, 0xa1, 0xe8, 0x26, 0x3e, 0x10, 0xcf, 0xd1, 0xbd, 
	0x32, 0xd7, 0x75, 0xbd, 0xc2, 0x76, 0x20, 0xbd, 0xb0, 0x31, 0xae, 0xbd, 
	0x11, 0x42, 0xd3, 0xbd, 0x3b, 0x73, 0x59, 0xbe, 0xb2, 0x0b, 0x04, 0xbe, 
	0xb0, 0xac, 0xd7, 0x3d, 0x18, 0xba, 0x2d, 0x3e, 0x09, 0x10, 0x85, 0x3c, 
	0x1f, 0x2c, 0x0c, 0xbe, 0xa0, 0xa7, 0x1b, 0x3e, 0x80, 0x4c, 0xc2, 0xbd, 
	0x19, 0xc4, 0x0e, 0x3d, 0x89, 0x17, 0x38, 0xbe, 0x7d, 0x51, 0x17, 0xbd, 
	0x4c, 0xae, 0x78, 0xbd, 0x56, 0x45, 0x02, 0xbe, 0xdf, 0x0a, 0x65, 0xbd, 
	0xeb, 0xb4, 0x3d, 0xbe, 0x65, 0x92, 0x6d, 0xbe, 0x37, 0x0d, 0xc5, 0xbd, 
	0xe5, 0x3e, 0xcd, 0x3d, 0xae, 0x6a, 0xd6, 0xbc, 0x07, 0x15, 0x51, 0x3d, 
	0xec, 0xc8, 0xfa, 0xbd, 0x0c, 0x2c, 0x2e, 0x3d, 0xaa, 0xee, 0xac, 0x3d, 
	0xa2, 0x6a, 0x1f, 0x3e, 0x09, 0x90, 0x81, 0xbe, 0x4b, 0xe6, 0x9d, 0x3c, 
	0xa2, 0xb2, 0x12, 0xbe, 0x93, 0x89, 0x34, 0x3d, 0xe5, 0x5b, 0x44, 0x3d, 
	0x5d, 0xc4, 0x65, 0x3c, 0xa6, 0x14, 0xc8, 0x3d, 0x7b, 0x14, 0x13, 0x3e, 
	0x95, 0xd8, 0xd7, 0xbd, 0x63, 0xcb, 0x9a, 0x3c, 0x2c, 0xc9, 0xfb, 0x3c, 
	0x63, 0x29, 0x32, 0xbd, 0x63, 0x43, 0x16, 0xbe, 0x9e, 0x41, 0x86, 0x3b, 
	0x0c, 0x26, 0xa6, 0xbd, 0x75, 0x82, 0x97, 0xbc, 0xbd, 0x7e, 0xd6, 0xbd, 
	0x95, 0x79, 0xf5, 0xbd, 0x73, 0xa9, 0x1c, 0xbe, 0x66, 0xdd, 0x02, 0xbd, 
	0xbc, 0x86, 0x1d, 0x3c, 0x6c, 0x9b, 0x42, 0xbe, 0x98, 0x06, 0x87, 0x3d, 
	0x39, 0x97, 0x05, 0xbe, 0x10, 0x3c, 0x07, 0xbd, 0xb8, 0x70, 0x8d, 0xbc, 
	0xf3, 0xcf, 0x9c, 0x3c, 0x03, 0x9e, 0xe5, 0x3d, 0x46, 0xa5, 0x44, 0xbe, 
	0x00, 0x62, 0xfb, 0x3d, 0x48, 0xe7, 0x84, 0x3d, 0x19, 0xc4, 0xb3, 0xbd, 
	0x5c, 0x12, 0x2c, 0xbe, 0x84, 0xb2, 0x01, 0xbe, 0xf0, 0xcb, 0xbb, 0xbd, 
	0x78, 0x22, 0x2c, 0x3d, 0xaf, 0x78, 0x94, 0x3d, 0xa5, 0x3b, 0x97, 0x3d, 
	0x75, 0xbc, 0x01, 0xbe, 0x13, 0xc9, 0x8f, 0x3a, 0x40, 0x5f, 0x35, 0xbe, 
	0x43, 0x9f, 0xa4, 0xbd, 0x7b, 0x92, 0xaa, 0xbd, 0x9f, 0x18, 0xb7, 0xbd, 
	0x9b, 0x63, 0xcf, 0x3d, 0xe8, 0xc6, 0xf6, 0xbd, 0x84, 0x26, 0x24, 0xbe, 
	0x2d, 0xf7, 0xdc, 0x3d, 0x61, 0x9e, 0x6b, 0xbd, 0x09, 0xd1, 0x2b, 0x3e, 
	0x9b, 0x25, 0x92, 0x3d, 0x68, 0x85, 0x15, 0xbe, 0xaf, 0x0a, 0x06, 0x3e, 
	0x23, 0xd1, 0xbd, 0x3d, 0x01, 0x38, 0x24, 0x3d, 0x72, 0x24, 0x8c, 0xbd, 
	0xbf, 0x90, 0xd4, 0x3c, 0x13, 0xe3, 0xf4, 0x3a, 0x8c, 0xa9, 0x07, 0x3d, 
	0xdb, 0x2f, 0x95, 0x3d, 0xf0, 0x42, 0x75, 0xbe, 0x48, 0x8e, 0x41, 0x3d, 
	0x73, 0x24, 0x3b, 0xbd, 0x61, 0x12, 0x3f, 0xbe, 0xd2, 0x98, 0x04, 0xbe, 
	0xc0, 0x72, 0x35, 0x3c, 0x22, 0xa8, 0x59, 0x3d, 0x58, 0x25, 0xdc, 0xbc, 
	0xb3, 0x20, 0x3b, 0x3e, 0xc4, 0x0a, 0xa0, 0x3d, 0x61, 0x07, 0x08, 0x3d, 
	0x1c, 0xf0, 0x90, 0xbc, 0xd3, 0x8a, 0x2c, 0xbe, 0xc0, 0x8c, 0x36, 0xbe, 
	0x97, 0x26, 0xd6, 0xbd, 0x78, 0xab, 0xfb, 0xbd, 0x89, 0xca, 0x8e, 0xbd, 
	0xc9, 0x29, 0xf3, 0x3d, 0xb8, 0xf1, 0x54, 0xbe, 0xe4, 0xcb, 0x22, 0xbc, 
	0xd5, 0x9a, 0x51, 0x3d, 0xa3, 0x1c, 0x73, 0xbe, 0x90, 0x07, 0x56, 0x3c, 
	0x23, 0x1e, 0xa1, 0x3d, 0xab, 0x43, 0x16, 0x3c, 0x93, 0x95, 0xfc, 0xbb, 
	0xee, 0x40, 0xe1, 0xbc, 0x70, 0x94, 0x16, 0xbd, 0xfb, 0x95, 0xed, 0x3d, 
	0x25, 0x5a, 0xac, 0x3c, 0x36, 0xec, 0x23, 0xbe, 0xfc, 0x05, 0x77, 0xbd, 
	0x53, 0xf6, 0xb9, 0xbd, 0xed, 0x94, 0x03, 0x3e, 0xd6, 0x2b, 0xcb, 0x3d, 
	0x84, 0x35, 0x2d, 0xbe, 0x6f, 0x91, 0x01, 0xbe, 0x50, 0x18, 0xa1, 0x3d, 
	0x56, 0x0c, 0xca, 0xbd, 0x69, 0xbb, 0x00, 0xbe, 0x1a, 0x95, 0xad, 0x3d, 
	0x4e, 0xff, 0xff, 0xff, 0x04, 0x00, 0x00, 0x00, 0x18, 0x00, 0x00, 0x00, 
	0x42, 0xdc, 0x3d, 0xbc, 0x3e, 0xb0, 0xc1, 0xba, 0x78, 0xb1, 0x60, 0xbd, 
	0x43, 0x04, 0x2e, 0xbd, 0x6b, 0xe8, 0x68, 0xbc, 0x20, 0xb4, 0x34, 0xbd, 
	0xdc, 0xf7, 0xff, 0xff, 0xe0, 0xf7, 0xff, 0xff, 0x0f, 0x00, 0x00, 0x00, 
	0x4d, 0x4c, 0x49, 0x52, 0x20, 0x43, 0x6f, 0x6e, 0x76, 0x65, 0x72, 0x74, 
	0x65, 0x64, 0x2e, 0x00, 0x01, 0x00, 0x00, 0x00, 0x14, 0x00, 0x00, 0x00, 
	0x00, 0x00, 0x0e, 0x00, 0x18, 0x00, 0x14, 0x00, 0x10, 0x00, 0x0c, 0x00, 
	0x08, 0x00, 0x04, 0x00, 0x0e, 0x00, 0x00, 0x00, 0x14, 0x00, 0x00, 0x00, 
	0x1c, 0x00, 0x00, 0x00, 0xcc, 0x01, 0x00, 0x00, 0xd0, 0x01, 0x00, 0x00, 
	0xd4, 0x01, 0x00, 0x00, 0x04, 0x00, 0x00, 0x00, 0x6d, 0x61, 0x69, 0x6e, 
	0x00, 0x00, 0x00, 0x00, 0x06, 0x00, 0x00, 0x00, 0x64, 0x01, 0x00, 0x00, 
	0x00, 0x01, 0x00, 0x00, 0xc8, 0x00, 0x00, 0x00, 0x78, 0x00, 0x00, 0x00, 
	0x40, 0x00, 0x00, 0x00, 0x04, 0x00, 0x00, 0x00, 0x22, 0xff, 0xff, 0xff, 
	0x1c, 0x00, 0x00, 0x00, 0x00, 0x00, 0x00, 0x09, 0x1c, 0x00, 0x00, 0x00, 
	0x20, 0x00, 0x00, 0x00, 0x04, 0x00, 0x00, 0x00, 0x00, 0x00, 0x06, 0x00, 
	0x08, 0x00, 0x04, 0x00, 0x06, 0x00, 0x00, 0x00, 0x00, 0x00, 0x80, 0x3f, 
	0x01, 0x00, 0x00, 0x00, 0x0d, 0x00, 0x00, 0x00, 0x01, 0x00, 0x00, 0x00, 
	0x0c, 0x00, 0x00, 0x00, 0x5a, 0xff, 0xff, 0xff, 0x14, 0x00, 0x00, 0x00, 
	0x00, 0x00, 0x00, 0x08, 0x10, 0x00, 0x00, 0x00, 0x14, 0x00, 0x00, 0x00, 
	0x03, 0x00, 0x00, 0x00, 0xa0, 0xf8, 0xff, 0xff, 0x01, 0x00, 0x00, 0x00, 
	0x0c, 0x00, 0x00, 0x00, 0x03, 0x00, 0x00, 0x00, 0x0b, 0x00, 0x00, 0x00, 
	0x07, 0x00, 0x00, 0x00, 0x03, 0x00, 0x00, 0x00, 0x8e, 0xff, 0xff, 0xff, 
	0x1c, 0x00, 0x00, 0x00, 0x00, 0x00, 0x00, 0x08, 0x1c, 0x00, 0x00, 0x00, 
	0x20, 0x00, 0x00, 0x00, 0x03, 0x00, 0x00, 0x00, 0x00, 0x00, 0x06, 0x00, 
	0x08, 0x00, 0x07, 0x00, 0x06, 0x00, 0x00, 0x00, 0x00, 0x00, 0x00, 0x01, 
	0x01, 0x00, 0x00, 0x00, 0x0b, 0x00, 0x00, 0x00, 0x03, 0x00, 0x00, 0x00, 
	0x0a, 0x00, 0x00, 0x00, 0x06, 0x00, 0x00, 0x00, 0x04, 0x00, 0x00, 0x00, 
	0x00, 0x00, 0x0a, 0x00, 0x10, 0x00, 0x0c, 0x00, 0x08, 0x00, 0x04, 0x00, 
	0x0a, 0x00, 0x00, 0x00, 0x0c, 0x00, 0x00, 0x00, 0x10, 0x00, 0x00, 0x00, 
	0x02, 0x00, 0x00, 0x00, 0x01, 0x00, 0x00, 0x00, 0x0a, 0x00, 0x00, 0x00, 
	0x02, 0x00, 0x00, 0x00, 0x09, 0x00, 0x00, 0x00, 0x05, 0x00, 0x00, 0x00, 
	0x00, 0x00, 0x0e, 0x00, 0x1a, 0x00, 0x14, 0x00, 0x10, 0x00, 0x0c, 0x00, 
	0x0b, 0x00, 0x04, 0x00, 0x0e, 0x00, 0x00, 0x00, 0x24, 0x00, 0x00, 0x00, 
	0x00, 0x00, 0x00, 0x05, 0x34, 0x00, 0x00, 0x00, 0x38, 0x00, 0x00, 0x00, 
	0x01, 0x00, 0x00, 0x00, 0x00, 0x00, 0x0e, 0x00, 0x18, 0x00, 0x17, 0x00, 
	0x10, 0x00, 0x0c, 0x00, 0x08, 0x00, 0x04, 0x00, 0x0e, 0x00, 0x00, 0x00, 
	0x02, 0x00, 0x00, 0x00, 0x02, 0x00, 0x00, 0x00, 0x02, 0x00, 0x00, 0x00, 
	0x02, 0x00, 0x00, 0x00, 0x00, 0x00, 0x00, 0x01, 0x01, 0x00, 0x00, 0x00, 
	0x09, 0x00, 0x00, 0x00, 0x01, 0x00, 0x00, 0x00, 0x08, 0x00, 0x00, 0x00, 
	0x00, 0x00, 0x0e, 0x00, 0x14, 0x00, 0x00, 0x00, 0x10, 0x00, 0x0c, 0x00, 
	0x0b, 0x00, 0x04, 0x00, 0x0e, 0x00, 0x00, 0x00, 0x1c, 0x00, 0x00, 0x00, 
	0x00, 0x00, 0x00, 0x01, 0x28, 0x00, 0x00, 0x00, 0x2c, 0x00, 0x00, 0x00, 
	0x0c, 0x00, 0x14, 0x00, 0x13, 0x00, 0x0c, 0x00, 0x08, 0x00, 0x07, 0x00, 
	0x0c, 0x00, 0x00, 0x00, 0x00, 0x00, 0x00, 0x01, 0x01, 0x00, 0x00, 0x00, 
	0x01, 0x00, 0x00, 0x00, 0x00, 0x00, 0x00, 0x01, 0x01, 0x00, 0x00, 0x00, 
	0x08, 0x00, 0x00, 0x00, 0x03, 0x00, 0x00, 0x00, 0x00, 0x00, 0x00, 0x00, 
	0x02, 0x00, 0x00, 0x00, 0x01, 0x00, 0x00, 0x00, 0x01, 0x00, 0x00, 0x00, 
	0x0d, 0x00, 0x00, 0x00, 0x01, 0x00, 0x00, 0x00, 0x00, 0x00, 0x00, 0x00, 
	0x0e, 0x00, 0x00, 0x00, 0xd4, 0x05, 0x00, 0x00, 0x60, 0x05, 0x00, 0x00, 
	0xf0, 0x04, 0x00, 0x00, 0x94, 0x04, 0x00, 0x00, 0x38, 0x04, 0x00, 0x00, 
	0xe8, 0x03, 0x00, 0x00, 0x80, 0x03, 0x00, 0x00, 0x30, 0x03, 0x00, 0x00, 
	0x58, 0x02, 0x00, 0x00, 0xe0, 0x01, 0x00, 0x00, 0x7c, 0x01, 0x00, 0x00, 
	0xe0, 0x00, 0x00, 0x00, 0x60, 0x00, 0x00, 0x00, 0x04, 0x00, 0x00, 0x00, 
	0x7a, 0xfa, 0xff, 0xff, 0x00, 0x00, 0x00, 0x01, 0x14, 0x00, 0x00, 0x00, 
	0x1c, 0x00, 0x00, 0x00, 0x1c, 0x00, 0x00, 0x00, 0x0e, 0x00, 0x00, 0x00, 
	0x34, 0x00, 0x00, 0x00, 0x02, 0x00, 0x00, 0x00, 0xff, 0xff, 0xff, 0xff, 
	0x08, 0x00, 0x00, 0x00, 0x5c, 0xfa, 0xff, 0xff, 0x19, 0x00, 0x00, 0x00, 
	0x53, 0x74, 0x61, 0x74, 0x65, 0x66, 0x75, 0x6c, 0x50, 0x61, 0x72, 0x74, 
	0x69, 0x74, 0x69, 0x6f, 0x6e, 0x65, 0x64, 0x43, 0x61, 0x6c, 0x6c, 0x3a, 
	0x30, 0x00, 0x00, 0x00, 0x02, 0x00, 0x00, 0x00, 0x01, 0x00, 0x00, 0x00, 
	0x08, 0x00, 0x00, 0x00, 0xd2, 0xfa, 0xff, 0xff, 0x00, 0x00, 0x00, 0x01, 
	0x14, 0x00, 0x00, 0x00, 0x1c, 0x00, 0x00, 0x00, 0x1c, 0x00, 0x00, 0x00, 
	0x0d, 0x00, 0x00, 0x00, 0x58, 0x00, 0x00, 0x00, 0x02, 0x00, 0x00, 0x00, 
	0xff, 0xff, 0xff, 0xff, 0x08, 0x00, 0x00, 0x00, 0xb4, 0xfa, 0xff, 0xff, 
	0x3c, 0x00, 0x00, 0x00, 0x73, 0x65, 0x71, 0x75, 0x65, 0x6e, 0x74, 0x69, 
	0x61, 0x6c, 0x5f, 0x31, 0x30, 0x2f, 0x64, 0x65, 0x6e, 0x73, 0x65, 0x5f, 
	0x31, 0x39, 0x2f, 0x4d, 0x61, 0x74, 0x4d, 0x75, 0x6c, 0x3b, 0x73, 0x65, 
	0x71, 0x75, 0x65, 0x6e, 0x74, 0x69, 0x61, 0x6c, 0x5f, 0x31, 0x30, 0x2f, 
	0x64, 0x65, 0x6e, 0x73, 0x65, 0x5f, 0x31, 0x39, 0x2f, 0x42, 0x69, 0x61, 
	0x73, 0x41, 0x64, 0x64, 0x00, 0x00, 0x00, 0x00, 0x02, 0x00, 0x00, 0x00, 
	0x01, 0x00, 0x00, 0x00, 0x08, 0x00, 0x00, 0x00, 0x4e, 0xfb, 0xff, 0xff, 
	0x00, 0x00, 0x00, 0x01, 0x14, 0x00, 0x00, 0x00, 0x1c, 0x00, 0x00, 0x00, 
	0x1c, 0x00, 0x00, 0x00, 0x0c, 0x00, 0x00, 0x00, 0x74, 0x00, 0x00, 0x00, 
	0x02, 0x00, 0x00, 0x00, 0xff, 0xff, 0xff, 0xff, 0x0a, 0x00, 0x00, 0x00, 
	0x30, 0xfb, 0xff, 0xff, 0x58, 0x00, 0x00, 0x00, 0x73, 0x65, 0x71, 0x75, 
	0x65, 0x6e, 0x74, 0x69, 0x61, 0x6c, 0x5f, 0x31, 0x30, 0x2f, 0x64, 0x65, 
	0x6e, 0x73, 0x65, 0x5f, 0x31, 0x38, 0x2f, 0x4d, 0x61, 0x74, 0x4d, 0x75, 
	0x6c, 0x3b, 0x73, 0x65, 0x71, 0x75, 0x65, 0x6e, 0x74, 0x69, 0x61, 0x6c, 
	0x5f, 0x31, 0x30, 0x2f, 0x64, 0x65, 0x6e, 0x73, 0x65, 0x5f, 0x31, 0x38, 
	0x2f, 0x52, 0x65, 0x6c, 0x75, 0x3b, 0x73, 0x65, 0x71, 0x75, 0x65, 0x6e, 
	0x74, 0x69, 0x61, 0x6c, 0x5f, 0x31, 0x30, 0x2f, 0x64, 0x65, 0x6e, 0x73, 
	0x65, 0x5f, 0x31, 0x38, 0x2f, 0x42, 0x69, 0x61, 0x73, 0x41, 0x64, 0x64, 
	0x00, 0x00, 0x00, 0x00, 0x02, 0x00, 0x00, 0x00, 0x01, 0x00, 0x00, 0x00, 
	0x0a, 0x00, 0x00, 0x00, 0xe6, 0xfb, 0xff, 0xff, 0x00, 0x00, 0x00, 0x01, 
	0x14, 0x00, 0x00, 0x00, 0x1c, 0x00, 0x00, 0x00, 0x1c, 0x00, 0x00, 0x00, 
	0x0b, 0x00, 0x00, 0x00, 0x3c, 0x00, 0x00, 0x00, 0x02, 0x00, 0x00, 0x00, 
	0xff, 0xff, 0xff, 0xff, 0x18, 0x00, 0x00, 0x00, 0xc8, 0xfb, 0xff, 0xff, 
	0x20, 0x00, 0x00, 0x00, 0x73, 0x65, 0x71, 0x75, 0x65, 0x6e, 0x74, 0x69, 
	0x61, 0x6c, 0x5f, 0x31, 0x30, 0x2f, 0x66, 0x6c, 0x61, 0x74, 0x74, 0x65, 
	0x6e, 0x5f, 0x31, 0x30, 0x2f, 0x52, 0x65, 0x73, 0x68, 0x61, 0x70, 0x65, 
	0x00, 0x00, 0x00, 0x00, 0x02, 0x00, 0x00, 0x00, 0x01, 0x00, 0x00, 0x00, 
	0x18, 0x00, 0x00, 0x00, 0x46, 0xfc, 0xff, 0xff, 0x00, 0x00, 0x00, 0x01, 
	0x14, 0x00, 0x00, 0x00, 0x24, 0x00, 0x00, 0x00, 0x24, 0x00, 0x00, 0x00, 
	0x0a, 0x00, 0x00, 0x00, 0x48, 0x00, 0x00, 0x00, 0x04, 0x00, 0x00, 0x00, 
	0xff, 0xff, 0xff, 0xff, 0x02, 0x00, 0x00, 0x00, 0x02, 0x00, 0x00, 0x00, 
	0x06, 0x00, 0x00, 0x00, 0x30, 0xfc, 0xff, 0xff, 0x25, 0x00, 0x00, 0x00, 
	0x73, 0x65, 0x71, 0x75, 0x65, 0x6e, 0x74, 0x69, 0x61, 0x6c, 0x5f, 0x31, 
	0x30, 0x2f, 0x6d, 0x61, 0x78, 0x5f, 0x70, 0x6f, 0x6f, 0x6c, 0x69, 0x6e, 
	0x67, 0x32, 0x64, 0x5f, 0x37, 0x2f, 0x4d, 0x61, 0x78, 0x50, 0x6f, 0x6f, 
	0x6c, 0x00, 0x00, 0x00, 0x04, 0x00, 0x00, 0x00, 0x01, 0x00, 0x00, 0x00, 
	0x02, 0x00, 0x00, 0x00, 0x02, 0x00, 0x00, 0x00, 0x06, 0x00, 0x00, 0x00, 
	0xba, 0xfc, 0xff, 0xff, 0x00, 0x00, 0x00, 0x01, 0x14, 0x00, 0x00, 0x00, 
	0x24, 0x00, 0x00, 0x00, 0x24, 0x00, 0x00, 0x00, 0x09, 0x00, 0x00, 0x00, 
	0xa8, 0x00, 0x00, 0x00, 0x04, 0x00, 0x00, 0x00, 0xff, 0xff, 0xff, 0xff, 
	0x04, 0x00, 0x00, 0x00, 0x04, 0x00, 0x00, 0x00, 0x06, 0x00, 0x00, 0x00, 
	0xa4, 0xfc, 0xff, 0xff, 0x86, 0x00, 0x00, 0x00, 0x73, 0x65, 0x71, 0x75, 
	0x65, 0x6e, 0x74, 0x69, 0x61, 0x6c, 0x5f, 0x31, 0x30, 0x2f, 0x63, 0x6f, 
	0x6e, 0x76, 0x32, 0x64, 0x5f, 0x39, 0x2f, 0x52, 0x65, 0x6c, 0x75, 0x3b, 
	0x73, 0x65, 0x71, 0x75, 0x65, 0x6e, 0x74, 0x69, 0x61, 0x6c, 0x5f, 0x31, 
	0x30, 0x2f, 0x63, 0x6f, 0x6e, 0x76, 0x32, 0x64, 0x5f, 0x39, 0x2f, 0x42, 
	0x69, 0x61, 0x73, 0x41, 0x64, 0x64, 0x3b, 0x73, 0x65, 0x71, 0x75, 0x65, 
	0x6e, 0x74, 0x69, 0x61, 0x6c, 0x5f, 0x31, 0x30, 0x2f, 0x63, 0x6f, 0x6e, 
	0x76, 0x32, 0x64, 0x5f, 0x39, 0x2f, 0x43, 0x6f, 0x6e, 0x76, 0x32, 0x44, 
	0x3b, 0x73, 0x65, 0x71, 0x75, 0x65, 0x6e, 0x74, 0x69, 0x61, 0x6c, 0x5f, 
	0x31, 0x30, 0x2f, 0x63, 0x6f, 0x6e, 0x76, 0x32, 0x64, 0x5f, 0x39, 0x2f, 
	0x42, 0x69, 0x61, 0x73, 0x41, 0x64, 0x64, 0x2f, 0x52, 0x65, 0x61, 0x64, 
	0x56, 0x61, 0x72, 0x69, 0x61, 0x62, 0x6c, 0x65, 0x4f, 0x70, 0x00, 0x00, 
	0x04, 0x00, 0x00, 0x00, 0x01, 0x00, 0x00, 0x00, 0x04, 0x00, 0x00, 0x00, 
	0x04, 0x00, 0x00, 0x00, 0x06, 0x00, 0x00, 0x00, 0xfe, 0xfd, 0xff, 0xff, 
	0x00, 0x00, 0x00, 0x01, 0x10, 0x00, 0x00, 0x00, 0x10, 0x00, 0x00, 0x00, 
	0x08, 0x00, 0x00, 0x00, 0x2c, 0x00, 0x00, 0x00, 0x60, 0xfd, 0xff, 0xff, 
	0x1d, 0x00, 0x00, 0x00, 0x73, 0x65, 0x71, 0x75, 0x65, 0x6e, 0x74, 0x69, 
	0x61, 0x6c, 0x5f, 0x31, 0x30, 0x2f, 0x64, 0x65, 0x6e, 0x73, 0x65, 0x5f, 
	0x31, 0x39, 0x2f, 0x4d, 0x61, 0x74, 0x4d, 0x75, 0x6c, 0x00, 0x00, 0x00, 
	0x02, 0x00, 0x00, 0x00, 0x08, 0x00, 0x00, 0x00, 0x0a, 0x00, 0x00, 0x00, 
	0x4a, 0xfe, 0xff, 0xff, 0x00, 0x00, 0x00, 0x01, 0x10, 0x00, 0x00, 0x00, 
	0x10, 0x00, 0x00, 0x00, 0x07, 0x00, 0x00, 0x00, 0x2c, 0x00, 0x00, 0x00, 
	0xac, 0xfd, 0xff, 0xff, 0x1d, 0x00, 0x00, 0x00, 0x73, 0x65, 0x71, 0x75, 
	0x65, 0x6e, 0x74, 0x69, 0x61, 0x6c, 0x5f, 0x31, 0x30, 0x2f, 0x64, 0x65, 
	0x6e, 0x73, 0x65, 0x5f, 0x31, 0x38, 0x2f, 0x4d, 0x61, 0x74, 0x4d, 0x75, 
	0x6c, 0x00, 0x00, 0x00, 0x02, 0x00, 0x00, 0x00, 0x0a, 0x00, 0x00, 0x00, 
	0x18, 0x00, 0x00, 0x00, 0x00, 0x00, 0x16, 0x00, 0x1c, 0x00, 0x18, 0x00, 
	0x17, 0x00, 0x10, 0x00, 0x0c, 0x00, 0x08, 0x00, 0x00, 0x00, 0x00, 0x00, 
	0x00, 0x00, 0x07, 0x00, 0x16, 0x00, 0x00, 0x00, 0x00, 0x00, 0x00, 0x01, 
	0x14, 0x00, 0x00, 0x00, 0x14, 0x00, 0x00, 0x00, 0x06, 0x00, 0x00, 0x00, 
	0x00, 0x00, 0x00, 0x02, 0x2c, 0x00, 0x00, 0x00, 0x14, 0xfe, 0xff, 0xff, 
	0x1e, 0x00, 0x00, 0x00, 0x73, 0x65, 0x71, 0x75, 0x65, 0x6e, 0x74, 0x69, 
	0x61, 0x6c, 0x5f, 0x31, 0x30, 0x2f, 0x66, 0x6c, 0x61, 0x74, 0x74, 0x65, 
	0x6e, 0x5f, 0x31, 0x30, 0x2f, 0x43, 0x6f, 0x6e, 0x73, 0x74, 0x00, 0x00, 
	0x01, 0x00, 0x00, 0x00, 0x02, 0x00, 0x00, 0x00, 0xfa, 0xfe, 0xff, 0xff, 
	0x00, 0x00, 0x00, 0x01, 0x10, 0x00, 0x00, 0x00, 0x10, 0x00, 0x00, 0x00, 
	0x05, 0x00, 0x00, 0x00, 0x3c, 0x00, 0x00, 0x00, 0x5c, 0xfe, 0xff, 0xff, 
	0x2d, 0x00, 0x00, 0x00, 0x73, 0x65, 0x71, 0x75, 0x65, 0x6e, 0x74, 0x69, 
	0x61, 0x6c, 0x5f, 0x31, 0x30, 0x2f, 0x64, 0x65, 0x6e, 0x73, 0x65, 0x5f, 
	0x31, 0x38, 0x2f, 0x42, 0x69, 0x61, 0x73, 0x41, 0x64, 0x64, 0x2f, 0x52, 
	0x65, 0x61, 0x64, 0x56, 0x61, 0x72, 0x69, 0x61, 0x62, 0x6c, 0x65, 0x4f, 
	0x70, 0x00, 0x00, 0x00, 0x01, 0x00, 0x00, 0x00, 0x0a, 0x00, 0x00, 0x00, 
	0x52, 0xff, 0xff, 0xff, 0x00, 0x00, 0x00, 0x01, 0x10, 0x00, 0x00, 0x00, 
	0x10, 0x00, 0x00, 0x00, 0x04, 0x00, 0x00, 0x00, 0x3c, 0x00, 0x00, 0x00, 
	0xb4, 0xfe, 0xff, 0xff, 0x2d, 0x00, 0x00, 0x00, 0x73, 0x65, 0x71, 0x75, 
	0x65, 0x6e, 0x74, 0x69, 0x61, 0x6c, 0x5f, 0x31, 0x30, 0x2f, 0x64, 0x65, 
	0x6e, 0x73, 0x65, 0x5f, 0x31, 0x39, 0x2f, 0x42, 0x69, 0x61, 0x73, 0x41, 
	0x64, 0x64, 0x2f, 0x52, 0x65, 0x61, 0x64, 0x56, 0x61, 0x72, 0x69, 0x61, 
	0x62, 0x6c, 0x65, 0x4f, 0x70, 0x00, 0x00, 0x00, 0x01, 0x00, 0x00, 0x00, 
	0x08, 0x00, 0x00, 0x00, 0xaa, 0xff, 0xff, 0xff, 0x00, 0x00, 0x00, 0x01, 
	0x10, 0x00, 0x00, 0x00, 0x10, 0x00, 0x00, 0x00, 0x03, 0x00, 0x00, 0x00, 
	0x2c, 0x00, 0x00, 0x00, 0x0c, 0xff, 0xff, 0xff, 0x1d, 0x00, 0x00, 0x00, 
	0x73, 0x65, 0x71, 0x75, 0x65, 0x6e, 0x74, 0x69, 0x61, 0x6c, 0x5f, 0x31, 
	0x30, 0x2f, 0x63, 0x6f, 0x6e, 0x76, 0x32, 0x64, 0x5f, 0x39, 0x2f, 0x43, 
	0x6f, 0x6e, 0x76, 0x32, 0x44, 0x00, 0x00, 0x00, 0x04, 0x00, 0x00, 0x00, 
	0x06, 0x00, 0x00, 0x00, 0x05, 0x00, 0x00, 0x00, 0x05, 0x00, 0x00, 0x00, 
	0x01, 0x00, 0x00, 0x00, 0x00, 0x00, 0x16, 0x00, 0x18, 0x00, 0x14, 0x00, 
	0x00, 0x00, 0x10, 0x00, 0x0c, 0x00, 0x08, 0x00, 0x00, 0x00, 0x00, 0x00, 
	0x00, 0x00, 0x07, 0x00, 0x16, 0x00, 0x00, 0x00, 0x00, 0x00, 0x00, 0x01, 
	0x10, 0x00, 0x00, 0x00, 0x10, 0x00, 0x00, 0x00, 0x02, 0x00, 0x00, 0x00, 
	0x3c, 0x00, 0x00, 0x00, 0x78, 0xff, 0xff, 0xff, 0x2d, 0x00, 0x00, 0x00, 
	0x73, 0x65, 0x71, 0x75, 0x65, 0x6e, 0x74, 0x69, 0x61, 0x6c, 0x5f, 0x31, 
	0x30, 0x2f, 0x63, 0x6f, 0x6e, 0x76, 0x32, 0x64, 0x5f, 0x39, 0x2f, 0x42, 
	0x69, 0x61, 0x73, 0x41, 0x64, 0x64, 0x2f, 0x52, 0x65, 0x61, 0x64, 0x56, 
	0x61, 0x72, 0x69, 0x61, 0x62, 0x6c, 0x65, 0x4f, 0x70, 0x00, 0x00, 0x00, 
	0x01, 0x00, 0x00, 0x00, 0x06, 0x00, 0x00, 0x00, 0x00, 0x00, 0x16, 0x00, 
	0x1c, 0x00, 0x18, 0x00, 0x00, 0x00, 0x14, 0x00, 0x10, 0x00, 0x0c, 0x00, 
	0x00, 0x00, 0x00, 0x00, 0x08, 0x00, 0x07, 0x00, 0x16, 0x00, 0x00, 0x00, 
	0x00, 0x00, 0x00, 0x01, 0x14, 0x00, 0x00, 0x00, 0x28, 0x00, 0x00, 0x00, 
	0x28, 0x00, 0x00, 0x00, 0x01, 0x00, 0x00, 0x00, 0x48, 0x00, 0x00, 0x00, 
	0x04, 0x00, 0x00, 0x00, 0xff, 0xff, 0xff, 0xff, 0x08, 0x00, 0x00, 0x00, 
	0x08, 0x00, 0x00, 0x00, 0x01, 0x00, 0x00, 0x00, 0x04, 0x00, 0x04, 0x00, 
	0x04, 0x00, 0x00, 0x00, 0x20, 0x00, 0x00, 0x00, 0x73, 0x65, 0x72, 0x76, 
	0x69, 0x6e, 0x67, 0x5f, 0x64, 0x65, 0x66, 0x61, 0x75, 0x6c, 0x74, 0x5f, 
	0x63, 0x6f, 0x6e, 0x76, 0x32, 0x64, 0x5f, 0x39, 0x5f, 0x69, 0x6e, 0x70, 
	0x75, 0x74, 0x3a, 0x30, 0x00, 0x00, 0x00, 0x00, 0x04, 0x00, 0x00, 0x00, 
	0x01, 0x00, 0x00, 0x00, 0x08, 0x00, 0x00, 0x00, 0x08, 0x00, 0x00, 0x00, 
	0x01, 0x00, 0x00, 0x00, 0x05, 0x00, 0x00, 0x00, 0x50, 0x00, 0x00, 0x00, 
	0x34, 0x00, 0x00, 0x00, 0x24, 0x00, 0x00, 0x00, 0x14, 0x00, 0x00, 0x00, 
	0x04, 0x00, 0x00, 0x00, 0xd0, 0xff, 0xff, 0xff, 0x19, 0x00, 0x00, 0x00, 
	0x00, 0x00, 0x00, 0x19, 0xdc, 0xff, 0xff, 0xff, 0x09, 0x00, 0x00, 0x00, 
	0x00, 0x00, 0x00, 0x09, 0xe8, 0xff, 0xff, 0xff, 0x16, 0x00, 0x00, 0x00, 
	0x00, 0x00, 0x00, 0x16, 0xf4, 0xff, 0xff, 0xff, 0x11, 0x00, 0x00, 0x00, 
	0x00, 0x00, 0x00, 0x11, 0x0c, 0x00, 0x0c, 0x00, 0x0b, 0x00, 0x00, 0x00, 
	0x00, 0x00, 0x04, 0x00, 0x0c, 0x00, 0x00, 0x00, 0x03, 0x00, 0x00, 0x00, 
	0x00, 0x00, 0x00, 0x03
};
const int model_len = 4804;